<?xml version="1.0"?>
<!--
    (c) Copyright 2000-2018 CERN for the benefit of the LHCb Collaboration

    This software is distributed under the terms of the GNU General Public
    Licence version 3 (GPL Version 3), copied verbatim in the file "COPYING".

    In applying this licence, CERN does not waive the privileges and immunities
    granted to it by virtue of its status as an Intergovernmental Organization
    or submit itself to any jurisdiction.
-->
<MethodSetup Method="MLP::Kaon_Upstream_TMVA">
  <GeneralInfo>
    <Info name="TMVA Release" value="4.2.1 [262657]"/>
    <Info name="ROOT Release" value="6.12/06 [396294]"/>
    <Info name="Creator" value="jonesc"/>
    <Info name="Date" value="Sat Jun 23 22:06:59 2018"/>
    <Info name="Host" value="Linux lcgapp-slc6-x86-64-2.cern.ch 2.6.32-696.18.7.el6.x86_64 #1 SMP Thu Jan 4 13:27:39 CET 2018 x86_64 x86_64 x86_64 GNU/Linux"/>
    <Info name="Dir" value="/var/pcfst/r01/lhcb/jonesc/ANNPID/results/UpgradeSim09cUp02RecoUp01/TrainMixture/TrainPhysTks-EvalPhysTks-NoReweight/GhostAccFrac0.1/PrAccF0.1/KaAccF1.0/PiAccF1.0/TMVA-Upgrade-Sim09cUp02RecoUp01/MLP/Norm/L1SF1.4/L2SF1.4/BP/NCycles750/CE/sigmoid/CVTest15/CVImp1e-16/NotUseRegulator/Kaon/Upstream"/>
    <Info name="Training events" value="1874437"/>
    <Info name="TrainingTime" value="8.82451421e+04"/>
    <Info name="AnalysisType" value="Classification"/>
  </GeneralInfo>
  <Options>
    <Option name="NCycles" modified="Yes">750</Option>
    <Option name="HiddenLayers" modified="Yes">26,26</Option>
    <Option name="NeuronType" modified="Yes">sigmoid</Option>
    <Option name="RandomSeed" modified="No">1</Option>
    <Option name="EstimatorType" modified="Yes">CE</Option>
    <Option name="NeuronInputType" modified="No">sum</Option>
    <Option name="V" modified="Yes">True</Option>
    <Option name="VerbosityLevel" modified="No">Verbose</Option>
    <Option name="VarTransform" modified="Yes">Norm</Option>
    <Option name="H" modified="Yes">True</Option>
    <Option name="CreateMVAPdfs" modified="No">False</Option>
    <Option name="IgnoreNegWeightsInTraining" modified="No">False</Option>
    <Option name="TrainingMethod" modified="Yes">BP</Option>
    <Option name="LearningRate" modified="No">2.000000e-02</Option>
    <Option name="DecayRate" modified="No">1.000000e-02</Option>
    <Option name="TestRate" modified="No">10</Option>
    <Option name="EpochMonitoring" modified="Yes">True</Option>
    <Option name="Sampling" modified="No">1.000000e+00</Option>
    <Option name="SamplingEpoch" modified="No">1.000000e+00</Option>
    <Option name="SamplingImportance" modified="No">1.000000e+00</Option>
    <Option name="SamplingTraining" modified="No">True</Option>
    <Option name="SamplingTesting" modified="No">False</Option>
    <Option name="ResetStep" modified="No">50</Option>
    <Option name="Tau" modified="No">3.000000e+00</Option>
    <Option name="BPMode" modified="No">sequential</Option>
    <Option name="BatchSize" modified="No">-1</Option>
    <Option name="ConvergenceImprove" modified="Yes">1.000000e-16</Option>
    <Option name="ConvergenceTests" modified="Yes">15</Option>
    <Option name="UseRegulator" modified="Yes">False</Option>
    <Option name="UpdateLimit" modified="No">10000</Option>
    <Option name="CalculateErrors" modified="No">False</Option>
    <Option name="WeightRange" modified="No">1.000000e+00</Option>
  </Options>
  <Variables NVar="19">
    <Variable VarIndex="0" Expression="TrackP" Label="TrackP" Title="TrackP" Unit="" Internal="TrackP" Type="F" Min="2.99929993e+02" Max="4.99173200e+06"/>
    <Variable VarIndex="1" Expression="TrackPt" Label="TrackPt" Title="TrackPt" Unit="" Internal="TrackPt" Type="F" Min="2.24395828e+01" Max="8.69137000e+05"/>
    <Variable VarIndex="2" Expression="TrackChi2PerDof" Label="TrackChi2PerDof" Title="TrackChi2PerDof" Unit="" Internal="TrackChi2PerDof" Type="F" Min="3.66457766e-06" Max="2.99982810e+00"/>
    <Variable VarIndex="3" Expression="TrackNumDof" Label="TrackNumDof" Title="TrackNumDof" Unit="" Internal="TrackNumDof" Type="I" Min="2.00000000e+00" Max="4.30000000e+01"/>
    <Variable VarIndex="4" Expression="TrackGhostProbability" Label="TrackGhostProbability" Title="TrackGhostProbability" Unit="" Internal="TrackGhostProbability" Type="F" Min="5.84781170e-04" Max="9.99998331e-01"/>
    <Variable VarIndex="5" Expression="TrackFitVeloChi2" Label="TrackFitVeloChi2" Title="TrackFitVeloChi2" Unit="" Internal="TrackFitVeloChi2" Type="F" Min="9.53189527e-10" Max="9.42393570e+01"/>
    <Variable VarIndex="6" Expression="TrackFitVeloNDoF" Label="TrackFitVeloNDoF" Title="TrackFitVeloNDoF" Unit="" Internal="TrackFitVeloNDoF" Type="I" Min="-1.00000000e+00" Max="3.90000000e+01"/>
    <Variable VarIndex="7" Expression="RichUsedR1Gas" Label="RichUsedR1Gas" Title="RichUsedR1Gas" Unit="" Internal="RichUsedR1Gas" Type="I" Min="0.00000000e+00" Max="1.00000000e+00"/>
    <Variable VarIndex="8" Expression="RichAbovePiThres" Label="RichAbovePiThres" Title="RichAbovePiThres" Unit="" Internal="RichAbovePiThres" Type="I" Min="0.00000000e+00" Max="1.00000000e+00"/>
    <Variable VarIndex="9" Expression="RichAboveKaThres" Label="RichAboveKaThres" Title="RichAboveKaThres" Unit="" Internal="RichAboveKaThres" Type="I" Min="0.00000000e+00" Max="1.00000000e+00"/>
    <Variable VarIndex="10" Expression="RichAbovePrThres" Label="RichAbovePrThres" Title="RichAbovePrThres" Unit="" Internal="RichAbovePrThres" Type="I" Min="0.00000000e+00" Max="1.00000000e+00"/>
    <Variable VarIndex="11" Expression="RichDLLe" Label="RichDLLe" Title="RichDLLe" Unit="" Internal="RichDLLe" Type="F" Min="-9.99000000e+02" Max="1.02354698e+02"/>
    <Variable VarIndex="12" Expression="RichDLLmu" Label="RichDLLmu" Title="RichDLLmu" Unit="" Internal="RichDLLmu" Type="F" Min="-9.99000000e+02" Max="6.38021011e+01"/>
    <Variable VarIndex="13" Expression="RichDLLk" Label="RichDLLk" Title="RichDLLk" Unit="" Internal="RichDLLk" Type="F" Min="-9.99000000e+02" Max="9.24558029e+01"/>
    <Variable VarIndex="14" Expression="RichDLLp" Label="RichDLLp" Title="RichDLLp" Unit="" Internal="RichDLLp" Type="F" Min="-9.99000000e+02" Max="8.10615997e+01"/>
    <Variable VarIndex="15" Expression="RichDLLd" Label="RichDLLd" Title="RichDLLd" Unit="" Internal="RichDLLd" Type="F" Min="-9.99000000e+02" Max="7.99847031e+01"/>
    <Variable VarIndex="16" Expression="RichDLLbt" Label="RichDLLbt" Title="RichDLLbt" Unit="" Internal="RichDLLbt" Type="F" Min="-9.99000000e+02" Max="4.62883987e+01"/>
    <Variable VarIndex="17" Expression="InAccBrem" Label="InAccBrem" Title="InAccBrem" Unit="" Internal="InAccBrem" Type="I" Min="0.00000000e+00" Max="1.00000000e+00"/>
    <Variable VarIndex="18" Expression="BremPIDe" Label="BremPIDe" Title="BremPIDe" Unit="" Internal="BremPIDe" Type="F" Min="-9.99000000e+02" Max="4.79148388e+00"/>
  </Variables>
  <Spectators NSpec="0"/>
  <Classes NClass="2">
    <Class Name="Signal" Index="0"/>
    <Class Name="Background" Index="1"/>
  </Classes>
  <Transformations NTransformations="1">
    <Transform Name="Normalize">
      <Selection>
        <Input NInputs="19">
          <Input Type="Variable" Label="TrackP" Expression="TrackP"/>
          <Input Type="Variable" Label="TrackPt" Expression="TrackPt"/>
          <Input Type="Variable" Label="TrackChi2PerDof" Expression="TrackChi2PerDof"/>
          <Input Type="Variable" Label="TrackNumDof" Expression="TrackNumDof"/>
          <Input Type="Variable" Label="TrackGhostProbability" Expression="TrackGhostProbability"/>
          <Input Type="Variable" Label="TrackFitVeloChi2" Expression="TrackFitVeloChi2"/>
          <Input Type="Variable" Label="TrackFitVeloNDoF" Expression="TrackFitVeloNDoF"/>
          <Input Type="Variable" Label="RichUsedR1Gas" Expression="RichUsedR1Gas"/>
          <Input Type="Variable" Label="RichAbovePiThres" Expression="RichAbovePiThres"/>
          <Input Type="Variable" Label="RichAboveKaThres" Expression="RichAboveKaThres"/>
          <Input Type="Variable" Label="RichAbovePrThres" Expression="RichAbovePrThres"/>
          <Input Type="Variable" Label="RichDLLe" Expression="RichDLLe"/>
          <Input Type="Variable" Label="RichDLLmu" Expression="RichDLLmu"/>
          <Input Type="Variable" Label="RichDLLk" Expression="RichDLLk"/>
          <Input Type="Variable" Label="RichDLLp" Expression="RichDLLp"/>
          <Input Type="Variable" Label="RichDLLd" Expression="RichDLLd"/>
          <Input Type="Variable" Label="RichDLLbt" Expression="RichDLLbt"/>
          <Input Type="Variable" Label="InAccBrem" Expression="InAccBrem"/>
          <Input Type="Variable" Label="BremPIDe" Expression="BremPIDe"/>
        </Input>
        <Output NOutputs="19">
          <Output Type="Variable" Label="TrackP" Expression="TrackP"/>
          <Output Type="Variable" Label="TrackPt" Expression="TrackPt"/>
          <Output Type="Variable" Label="TrackChi2PerDof" Expression="TrackChi2PerDof"/>
          <Output Type="Variable" Label="TrackNumDof" Expression="TrackNumDof"/>
          <Output Type="Variable" Label="TrackGhostProbability" Expression="TrackGhostProbability"/>
          <Output Type="Variable" Label="TrackFitVeloChi2" Expression="TrackFitVeloChi2"/>
          <Output Type="Variable" Label="TrackFitVeloNDoF" Expression="TrackFitVeloNDoF"/>
          <Output Type="Variable" Label="RichUsedR1Gas" Expression="RichUsedR1Gas"/>
          <Output Type="Variable" Label="RichAbovePiThres" Expression="RichAbovePiThres"/>
          <Output Type="Variable" Label="RichAboveKaThres" Expression="RichAboveKaThres"/>
          <Output Type="Variable" Label="RichAbovePrThres" Expression="RichAbovePrThres"/>
          <Output Type="Variable" Label="RichDLLe" Expression="RichDLLe"/>
          <Output Type="Variable" Label="RichDLLmu" Expression="RichDLLmu"/>
          <Output Type="Variable" Label="RichDLLk" Expression="RichDLLk"/>
          <Output Type="Variable" Label="RichDLLp" Expression="RichDLLp"/>
          <Output Type="Variable" Label="RichDLLd" Expression="RichDLLd"/>
          <Output Type="Variable" Label="RichDLLbt" Expression="RichDLLbt"/>
          <Output Type="Variable" Label="InAccBrem" Expression="InAccBrem"/>
          <Output Type="Variable" Label="BremPIDe" Expression="BremPIDe"/>
        </Output>
      </Selection>
      <Class ClassIndex="0">
        <Ranges>
          <Range Index="0" Min="3.9897000122070312e+02" Max="4.9063460000000000e+06"/>
          <Range Index="1" Min="3.0674961090087891e+01" Max="8.4270443750000000e+05"/>
          <Range Index="2" Min="6.1011491343379021e-03" Max="2.9998281002044678e+00"/>
          <Range Index="3" Min="2.0000000000000000e+00" Max="4.3000000000000000e+01"/>
          <Range Index="4" Min="5.8478116989135742e-04" Max="9.9768346548080444e-01"/>
          <Range Index="5" Min="4.1125339578229614e-08" Max="8.6530090332031250e+01"/>
          <Range Index="6" Min="-1.0000000000000000e+00" Max="3.9000000000000000e+01"/>
          <Range Index="7" Min="0.0000000000000000e+00" Max="1.0000000000000000e+00"/>
          <Range Index="8" Min="0.0000000000000000e+00" Max="1.0000000000000000e+00"/>
          <Range Index="9" Min="0.0000000000000000e+00" Max="1.0000000000000000e+00"/>
          <Range Index="10" Min="0.0000000000000000e+00" Max="1.0000000000000000e+00"/>
          <Range Index="11" Min="-9.9900000000000000e+02" Max="5.5972698211669922e+01"/>
          <Range Index="12" Min="-9.9900000000000000e+02" Max="2.0369300842285156e+01"/>
          <Range Index="13" Min="-9.9900000000000000e+02" Max="9.2455802917480469e+01"/>
          <Range Index="14" Min="-9.9900000000000000e+02" Max="8.1061599731445312e+01"/>
          <Range Index="15" Min="-9.9900000000000000e+02" Max="7.9984703063964844e+01"/>
          <Range Index="16" Min="-9.9900000000000000e+02" Max="4.6288398742675781e+01"/>
          <Range Index="17" Min="0.0000000000000000e+00" Max="1.0000000000000000e+00"/>
          <Range Index="18" Min="-9.9900000000000000e+02" Max="4.7914838790893555e+00"/>
        </Ranges>
      </Class>
      <Class ClassIndex="1">
        <Ranges>
          <Range Index="0" Min="2.9992999267578125e+02" Max="4.9917320000000000e+06"/>
          <Range Index="1" Min="2.2439582824707031e+01" Max="8.6913700000000000e+05"/>
          <Range Index="2" Min="3.6645776617660886e-06" Max="2.9997923374176025e+00"/>
          <Range Index="3" Min="2.0000000000000000e+00" Max="4.3000000000000000e+01"/>
          <Range Index="4" Min="6.5982341766357422e-04" Max="9.9999833106994629e-01"/>
          <Range Index="5" Min="9.5318952730849560e-10" Max="9.4239356994628906e+01"/>
          <Range Index="6" Min="-1.0000000000000000e+00" Max="3.8000000000000000e+01"/>
          <Range Index="7" Min="0.0000000000000000e+00" Max="1.0000000000000000e+00"/>
          <Range Index="8" Min="0.0000000000000000e+00" Max="1.0000000000000000e+00"/>
          <Range Index="9" Min="0.0000000000000000e+00" Max="1.0000000000000000e+00"/>
          <Range Index="10" Min="0.0000000000000000e+00" Max="1.0000000000000000e+00"/>
          <Range Index="11" Min="-9.9900000000000000e+02" Max="1.0235469818115234e+02"/>
          <Range Index="12" Min="-9.9900000000000000e+02" Max="6.3802101135253906e+01"/>
          <Range Index="13" Min="-9.9900000000000000e+02" Max="8.2454399108886719e+01"/>
          <Range Index="14" Min="-9.9900000000000000e+02" Max="7.2525199890136719e+01"/>
          <Range Index="15" Min="-9.9900000000000000e+02" Max="6.6583099365234375e+01"/>
          <Range Index="16" Min="-9.9900000000000000e+02" Max="4.3926799774169922e+01"/>
          <Range Index="17" Min="0.0000000000000000e+00" Max="1.0000000000000000e+00"/>
          <Range Index="18" Min="-9.9900000000000000e+02" Max="4.7914838790893555e+00"/>
        </Ranges>
      </Class>
      <Class ClassIndex="2">
        <Ranges>
          <Range Index="0" Min="2.9992999267578125e+02" Max="4.9917320000000000e+06"/>
          <Range Index="1" Min="2.2439582824707031e+01" Max="8.6913700000000000e+05"/>
          <Range Index="2" Min="3.6645776617660886e-06" Max="2.9998281002044678e+00"/>
          <Range Index="3" Min="2.0000000000000000e+00" Max="4.3000000000000000e+01"/>
          <Range Index="4" Min="5.8478116989135742e-04" Max="9.9999833106994629e-01"/>
          <Range Index="5" Min="9.5318952730849560e-10" Max="9.4239356994628906e+01"/>
          <Range Index="6" Min="-1.0000000000000000e+00" Max="3.9000000000000000e+01"/>
          <Range Index="7" Min="0.0000000000000000e+00" Max="1.0000000000000000e+00"/>
          <Range Index="8" Min="0.0000000000000000e+00" Max="1.0000000000000000e+00"/>
          <Range Index="9" Min="0.0000000000000000e+00" Max="1.0000000000000000e+00"/>
          <Range Index="10" Min="0.0000000000000000e+00" Max="1.0000000000000000e+00"/>
          <Range Index="11" Min="-9.9900000000000000e+02" Max="1.0235469818115234e+02"/>
          <Range Index="12" Min="-9.9900000000000000e+02" Max="6.3802101135253906e+01"/>
          <Range Index="13" Min="-9.9900000000000000e+02" Max="9.2455802917480469e+01"/>
          <Range Index="14" Min="-9.9900000000000000e+02" Max="8.1061599731445312e+01"/>
          <Range Index="15" Min="-9.9900000000000000e+02" Max="7.9984703063964844e+01"/>
          <Range Index="16" Min="-9.9900000000000000e+02" Max="4.6288398742675781e+01"/>
          <Range Index="17" Min="0.0000000000000000e+00" Max="1.0000000000000000e+00"/>
          <Range Index="18" Min="-9.9900000000000000e+02" Max="4.7914838790893555e+00"/>
        </Ranges>
      </Class>
    </Transform>
  </Transformations>
  <MVAPdfs/>
  <Weights>
    <Layout NLayers="4">
      <Layer Index="0" NNeurons="20">
        <Neuron NSynapses="26">
          7.3131401846693054e+00 3.9542859960053325e+00 1.3289132852614527e+00 6.7448254853239380e+00 -3.1895671555670164e+00 -1.0899952212347502e+01 -3.5804280514720670e+00 1.0534861428781852e+01 -1.7385623989179533e+00 -2.1023114308351563e+00 -1.6849944034951363e+01 1.1053091240552311e+01 -5.7334828957010089e+00 4.5935557352436623e-01 -1.8475032575586172e+00 1.9770318268924507e+00 -2.8044848487136105e+00 3.6506602673678628e+01 3.9610173901646162e+00 3.8296539664426423e+00 -4.9099816698317467e+00 -9.3308585603771133e-01 6.2420952139357508e+00 -4.5452614556350962e-01 2.5494823826226485e+00 -1.2610002139656873e+00 
        </Neuron>
        <Neuron NSynapses="26">
          8.0087588669096874e+00 7.5652948943069565e-01 -2.5054978388493883e+00 -1.2249324574232761e+00 3.2373101844394542e-01 -7.6310783559928410e+00 4.8528744224285736e-01 9.9050623040564820e-02 -3.0344870837418375e-01 -1.9718375085338058e+00 -9.1848003798011764e+00 9.6312477526507010e+00 -5.2497454824961194e+00 2.4847299796196594e+00 -2.0611186441971938e+00 6.2248960797810027e-01 -1.9669038285196005e+00 2.1024640524016154e+00 1.0004807040982624e+00 3.0144427826501068e+00 4.6492472559587243e+00 -9.0607074912505081e-02 4.5412982758985737e-01 -5.1290972831435804e+00 7.6857080140928566e+00 -4.1829817464901269e-02 
        </Neuron>
        <Neuron NSynapses="26">
          -2.1156452859481972e-01 -7.6916933554286315e-01 -9.4296664965713328e-01 -3.6959365267598097e+00 1.1981318646164310e-01 -4.4086466461769386e-01 -6.5023066307287980e-01 -4.3757234312585214e-02 -1.9646924804452492e+00 7.2197811536281287e-01 7.2944124433470714e-01 2.1081788097681301e-02 3.9303695570246302e+00 5.3262627179476363e-01 -1.2861890028141305e+00 -2.4156892110066410e+00 3.4046655203504489e-01 3.3444668573608805e-01 3.0211386853706830e+00 -2.6003534518123533e-01 6.7669054788040872e-01 1.8075578893370403e+00 -2.3786491697419601e-01 -8.8451073614511030e-02 1.1821805173870348e+00 2.7361148031287541e-01 
        </Neuron>
        <Neuron NSynapses="26">
          8.9192101188533268e-01 -4.6379954781656902e+00 2.5845001036788560e+00 1.9373009768441964e+00 -3.5756941296544125e+00 -4.2464034212292860e+00 4.0897071835145704e+00 6.9823563573466894e+00 5.5367452844778697e-01 -3.7973016297116557e+00 1.4059155158261589e+00 -1.9177277811568043e+01 -5.0165864191456935e+00 -2.5592959390883046e+00 6.2024865804926108e+00 -2.6962343868160699e+00 1.7448014348909018e+00 -2.2885519101571805e-01 -5.0951941226244468e+00 -8.9619662355164618e+00 -3.2606986803096900e+00 -8.8070232791184122e-01 -4.1125912759463867e-01 -4.5743762815034685e+00 5.4152346259085480e+00 1.8757375193368779e+00 
        </Neuron>
        <Neuron NSynapses="26">
          4.0279253909187372e-02 4.3866944548474489e+00 2.5127898704068254e+00 1.1452317929607374e-01 3.6707153662054026e-01 -1.1692612783176377e-01 -6.8147286318732236e-02 -9.5856754796743948e-01 4.3798531511345704e-02 4.2147241052424456e-01 -1.6652439010141189e+00 3.2919140326755425e-01 5.6173344883386078e-01 -1.7398389461390733e+00 7.1372876948912312e-01 -5.8593616750449344e+00 -3.0984409448958072e-01 8.2970187391149719e-01 5.8395554191193022e-01 -1.4992771725608072e+00 1.4352761055251804e+00 -8.2000515252332229e-01 -3.7701062957290583e+00 1.2281220011326908e+00 -2.1185563382647331e+01 1.9357282304336212e+00 
        </Neuron>
        <Neuron NSynapses="26">
          3.3115596195043000e-02 -1.6828993552428160e+00 8.8118373620181589e-01 -1.6200563514934758e+00 1.7669402781614943e-01 1.0062048141106306e+00 9.1115649422152927e-03 -1.0125797582280391e+00 7.3969925643619783e-01 2.4285703177936862e+00 -1.3056136429771632e+00 2.6998051642557663e-01 -7.2123647271570475e+00 2.5763816128465294e-01 6.0772499236646542e+00 2.2111174352612770e+00 -5.5416231045653408e-01 -9.1435516436480888e-02 -3.6285477658230021e+00 -1.8018119081480335e-01 -4.0568774355685300e-01 1.5718370109184057e-01 4.9431463815791908e-03 8.9917084117191959e-01 -4.5264544346295548e+00 7.3427737239147295e-01 
        </Neuron>
        <Neuron NSynapses="26">
          -6.8821238144177332e-01 -6.0506283611286393e-01 1.0593493213264602e+00 1.5148172744800309e-01 3.8985975332605918e+00 4.0864705487624695e+00 1.9595605942882793e-01 -6.2674215455235283e+00 1.2556534720844159e-01 4.1921251464917599e+00 -1.6398184109971741e+00 1.7646796259812113e+01 6.2713296552759061e+00 1.0915553255922474e-01 -8.2546691230368952e-02 1.6940459198321794e-01 -1.3331585839151485e+00 1.2666588744674573e-01 5.0298958223978669e+00 -5.0086026615797801e+00 3.0950906113296828e+00 -8.9287293732831119e-01 2.0907959475641968e+00 3.3874541155287132e+00 -5.9747411243845976e+00 3.7526084485047129e+00 
        </Neuron>
        <Neuron NSynapses="26">
          -3.8135929237187067e+00 -2.2646788389017338e+00 -9.8950428042956909e-02 -6.7241421389455691e-01 1.4613446238298320e+00 1.2217414580600208e+01 -7.1147311794910284e-01 1.7541746638871711e+01 -5.0797218986865200e-01 5.3674071410318485e+00 -3.9057422171212930e+00 4.4593079837226224e+00 6.5494928353633437e+00 -2.7281680895378608e+00 -3.3285986301727837e+00 7.3457071660266149e-01 1.8930096083323772e+01 -4.9052988631141501e+00 9.3290043664820643e-01 -4.5486111462802459e-01 -1.9140927485100633e+01 -1.7577776530087224e+00 2.2545863896984892e+00 2.0257018760595106e+01 -2.1288557937185320e+00 6.4705978082990212e-01 
        </Neuron>
        <Neuron NSynapses="26">
          -4.8743951316594997e-01 -1.3445693162714203e+00 6.3347380707630674e-01 -5.8052816051235168e-01 -3.6399944667180056e-01 -1.1397304676692237e+00 -1.0938534965759548e+00 1.9149043964378304e+01 5.5690252467055457e-01 -1.0534674530723236e+00 -3.3118640437921614e+00 -3.5463794968018680e+00 -1.5452857382651193e+00 -2.1845899473912107e+00 3.9316730382861637e-01 -2.9601644815477679e-01 2.0171568409288103e+01 -4.3953249168731139e+00 2.7229426883439261e+00 -2.1421298887709916e+00 -2.0783616253903269e+01 -1.3274106767621576e+00 3.0395383352065330e-01 1.7912044795977241e+01 9.2455917357161421e-01 -1.2699824969194811e+00 
        </Neuron>
        <Neuron NSynapses="26">
          1.5652198820273716e-02 -3.3199306584849664e+00 1.2988184538910221e+00 -6.6720950201271456e-01 -2.8268698310408330e-01 -7.8012112702934633e-01 -3.3638188771936617e-01 7.7613850795668682e-01 -2.0688826721362661e+00 7.0567373704007175e-01 -7.2049546839829199e+00 8.8000532669860340e-02 -4.3750628524945412e-01 -3.6994987886433757e+00 6.6552826648812768e+00 -2.4666937899599812e+00 9.4981626824729903e-01 -4.2679053829565605e+00 -4.6438840176867363e-01 -1.4926025618365573e+00 -1.3345341830474175e-01 -1.1473024475125400e+00 -7.1410469044982623e+00 -6.6730611961550623e-01 2.1537769595777159e-01 -3.1478215380081256e+00 
        </Neuron>
        <Neuron NSynapses="26">
          1.2082037793683100e+00 -9.1620843958622508e-02 4.4442665602886757e+00 4.8912595965609662e-01 -1.5023178208561017e+00 -4.8433707404067734e+00 -1.4712268874066314e+00 3.2003594928191070e-01 9.4605606246638807e-01 -1.1593937608584359e+00 -1.7139925636556101e+00 4.8945020969795465e-02 -2.4915529184111720e+00 -1.9335461769336129e+00 1.2269230878772670e+00 -4.8262962785922958e-01 -5.9663246285323712e-01 -2.1695116447173035e+00 2.6458278565044817e+00 3.3972837499801622e-01 -1.5422320333961093e+00 -4.9760729056752800e-01 1.2861785303685813e-01 5.8476071778101646e-01 -3.9393695519021132e-01 -2.4708183081259181e+00 
        </Neuron>
        <Neuron NSynapses="26">
          -1.4886572172106487e+01 6.2260771078739321e+00 -1.8391354146952583e+00 1.8661976030536638e+00 -2.6694423241809520e+01 8.5292021959332232e+00 -7.4788279529682082e+00 -4.2186101550732474e+01 2.4466495903958030e-01 -1.2924801408875711e+01 -2.8837654347998258e+00 -1.1180609083978805e+01 -1.2587710294148055e+01 -7.5372528617164054e+00 3.1137530997919010e+00 -6.7570541673117990e-02 -2.7296196125210795e+01 -4.0241763576290905e+00 4.9399859649534494e-01 -4.8226133406757693e-01 2.0711840275506525e+01 -1.5922177511432287e+00 -2.0534719375234753e+00 -4.5483538780140876e+01 -4.1054748395794975e+00 -1.1359895212126900e-01 
        </Neuron>
        <Neuron NSynapses="26">
          -3.5889955638806917e+01 3.6854551917577512e+00 4.0636745787844258e-01 4.2937730846314953e-01 4.0863344223279945e+01 -5.4341525148241256e+00 -8.7201014097602272e+00 2.7330673609212734e+01 -2.9867898264249000e+00 -8.4931734595111585e+00 -4.6650551914334173e+00 -5.1666695638776938e-01 -2.8300678563666488e+00 8.9614519899875127e+00 2.7420840868836112e+00 2.7015773385595487e+00 -3.0250592939474188e+01 -2.4603823159155973e+00 -1.9995357837157683e+00 7.1793266726629634e-01 -1.7123589670354686e+01 -1.9202469287460522e+00 -3.3003486809706684e-01 1.0902986232919680e+01 -8.2243717371013769e+00 4.5424323598085223e+00 
        </Neuron>
        <Neuron NSynapses="26">
          1.9882995861746348e+01 -1.3392200446346112e+00 -3.2964564033649895e+00 9.0365489408529964e-01 -4.1840551518485682e+00 -1.9981023160974345e+01 5.9974429054581782e+00 -6.1285991124644809e+01 -2.5872169716795153e+00 -2.9536131089181579e+00 1.4990523478188743e+01 -1.5750230662134021e+01 -7.6163897099781170e+00 3.3227971544230153e+00 7.1158387405571522e-01 -1.4872422968803223e+00 -3.7426863798047435e+01 -4.9246092330399671e+00 -7.5864102089655345e+00 3.0912649086562380e+00 4.2710951034408133e+01 -9.8485371572469249e-01 6.5875512730502417e-01 -4.9978258073431746e+01 3.0348883301828846e+00 -3.8049565468776101e+00 
        </Neuron>
        <Neuron NSynapses="26">
          1.8847958389193192e+01 -2.2184256847993824e+00 -2.0321598808791101e+00 -1.7474684605274049e+00 -7.1604747473909365e+00 -2.1362276448083048e+01 4.7246690635804223e+00 5.7642645261131831e+00 -3.2533966700671928e+00 4.3959490353215003e+00 -5.1285450796319054e+00 8.7651239230815321e+00 -3.8238870805920291e+00 2.2836206051578767e+00 -1.1769402063904899e+00 -8.9778584728653066e-01 -1.1195973534451911e+01 -4.1686527836347427e+00 -8.4306523484798734e-01 1.7003465650927001e+00 8.0575964992509768e+00 2.6098909592917807e-01 2.0136862546961489e+00 4.6817163466190186e+00 6.6609781384186464e+00 -3.4442036574870518e+00 
        </Neuron>
        <Neuron NSynapses="26">
          1.9495161528871776e+01 3.0777657157135940e-01 -2.4738404044087150e+00 -1.6296502034471378e+00 -7.4497730119537060e+00 -1.7388601477853275e+01 4.2536214092531308e+00 7.5564658145524533e+00 -4.8812335098996656e-02 2.4523587956898223e+00 -3.7419450209849616e+00 1.2851026060986666e+01 -3.1219179227473739e+00 1.6942276020388211e-02 2.3843398220713151e-02 -3.3453135877161153e+00 -5.2154005430188342e+00 -1.7644405194012898e+00 4.1090816164369987e-01 -2.1326941875092117e-01 6.0752421145916342e+00 -1.1606908931750359e+00 1.3549579203795372e+00 2.3627629927169025e+00 4.3020026790693402e+00 -2.2858836596541012e+00 
        </Neuron>
        <Neuron NSynapses="26">
          2.0540024266307903e+01 5.4883749457768083e-01 2.1097099982920700e-01 -2.2931982832968161e+00 -6.9529154034929483e+00 -1.8360002653698739e+01 6.6261395334753814e+00 1.6864260466315788e+00 -3.1907986130303816e+00 2.2344281441771563e+00 -4.3613961117667026e+00 9.5784370380261610e+00 -5.3691547268130106e+00 2.2533642435584076e+00 -1.4336401991385097e+00 -3.3778626724742593e+00 -6.5043991109716064e+00 -3.6486740484501099e+00 1.7102766245407188e+00 2.2138961435971152e+00 1.2098359740672327e+01 -4.7950157070586807e-01 -9.9651531378773828e-01 8.9247597287507896e-01 3.3897829721556296e+00 -3.8638338347330707e+00 
        </Neuron>
        <Neuron NSynapses="26">
          1.2331311023279370e-01 -8.0670968389521924e-01 -2.5117305335110367e+00 2.0449277053952866e+00 1.2098070862829269e+00 1.0141764508087396e+01 -7.5950098147130463e-01 4.5830021309613367e-01 -8.4583419586462139e-01 -2.9157616092144434e-01 -1.3173047601110194e-01 5.3268790803659822e+00 1.3504891445618938e+00 -3.0328284090376929e+00 6.1063180824620512e-02 -1.2626892353220609e+00 2.0007982722936180e+01 8.0200523779142674e-01 1.9924868438724697e-01 1.0789423878514623e+00 -1.6117970040585354e+00 -1.1705674801438934e+00 7.1077954568499713e-01 2.0074758543509970e+00 -6.1830552228352449e+00 -1.9180936594589066e+00 
        </Neuron>
        <Neuron NSynapses="26">
          4.7742009427194859e-01 1.0063307771214225e+00 -6.3077514372934163e-01 -2.1954052401309379e-01 -1.2349326356648895e+00 9.2535212539391161e+00 7.6841233167119945e-03 -4.1730646492217466e-01 -2.8870532037951877e+00 -1.2730000047148886e+00 3.5707376517987049e-01 6.1972437398099540e+00 -1.3920858067279887e+00 -2.6442071654995196e+00 1.2967620048861625e-01 1.9369445058140933e+00 1.4473457456628260e+01 -9.2858665768171833e-01 -5.9401482052107191e-01 2.9746799286017683e-01 7.3281458371624786e-01 -2.0125422230401518e-01 -2.9353203765674924e-02 -1.6474771770120085e+00 -7.0932087308282963e+00 -2.4065262099590319e+00 
        </Neuron>
        <Neuron NSynapses="26">
          -5.9285922687295445e+00 -3.7073050465256108e+00 1.7716511763960809e+00 2.4874946155887212e+00 2.8225728313461382e+00 1.0321669687386597e+01 -4.9117466518479258e+00 1.9507030525293356e+01 2.4658987391977121e+00 5.4640035014114412e+00 -5.9000332835224372e+00 2.9032648846500146e+00 8.1510653379204534e+00 -3.6194364403296913e+00 -1.0085336041046031e+00 -1.0865085993899961e+00 1.9533927886727536e+01 2.0696887852604471e+00 4.0839248308081615e+00 -2.7436544046659375e+00 -1.8781006027316266e+01 -4.0033790807838726e-01 9.5719513573114157e-01 2.0190043775571564e+01 -5.3455919604523441e+00 2.1896863590939333e+00 
        </Neuron>
      </Layer>
      <Layer Index="1" NNeurons="27">
        <Neuron NSynapses="26">
          1.9250252520443749e+00 -2.1981613670393472e+00 -7.6704511058700389e+00 -4.6905960649344536e+00 3.2601699075593715e+00 4.2268773943405469e+00 -4.1145153069883122e-01 1.2383103568482907e+00 -1.0792857615280165e+00 2.1494346530383073e+00 -2.4793811652193387e+00 -1.1425110911161743e+01 3.1991403428967224e+00 -7.4301576223082055e-01 -3.0159772285156441e+00 9.7040986993058997e-01 -1.2400317202056854e+00 -5.0411739499286146e+00 2.3750531391735721e-01 -5.0716850515011158e+00 4.1367401809546127e+00 -6.0520401029328168e+00 -7.6408229083238552e+00 -1.4776828658167624e+00 -6.8201265553363433e-01 -2.7182468578135861e+00 
        </Neuron>
        <Neuron NSynapses="26">
          -2.3421885007427274e+00 -1.3143789799128813e+00 1.2018904804823838e-01 8.1481872757787088e-01 1.1582031342119894e+00 1.5575332379871709e-01 -1.4219706075979803e+00 -8.0311549299904039e-01 -3.0937503859405884e+00 -4.8309504844082296e+00 8.7448417422030700e-01 1.8347071164675120e-02 3.5232804831217784e-01 -2.5485509493612706e+00 -7.1457381469120973e-01 -4.8235132228886185e-01 8.5304384382486842e-01 -1.5509577245294701e+00 -3.6082176615216295e-02 6.4488746675087794e-01 -7.7113690177220429e-01 2.5183593752878336e-01 -3.4211385643033472e+00 2.8736885740284851e-01 7.9316451553698875e-01 -1.0856322667074274e+00 
        </Neuron>
        <Neuron NSynapses="26">
          7.9084128224475680e-01 1.3279550825987370e+00 -4.3414234202860058e+00 -2.2249822622724860e-01 -1.0122982606565092e+00 -2.4204927163222560e+00 7.2084915351307385e-02 -4.8083534613428230e-01 1.7316796906248206e+00 -2.4944995293509318e+00 2.5315811856957362e+00 -3.3924012016530640e+00 1.2542917908184143e-02 -2.2529267716765720e+00 -4.1545939504210672e-01 1.4623726009718792e+00 -7.6657521493807346e-01 5.1263390139070986e-01 -2.0078437406217278e+00 3.3733407072034232e+00 -9.2129356169582188e-01 -2.7723740343485109e-01 -1.5019190309306001e+00 -1.2939467189733624e+00 2.1133980233089154e+00 -2.5755992471290972e+00 
        </Neuron>
        <Neuron NSynapses="26">
          8.4555601432058791e-01 -1.0248304398820403e+00 1.1704464418619600e+00 5.5507347552569331e-01 3.6073379529089573e-02 -2.4553594174836824e+00 1.1978135759313127e-01 6.9423229381727225e-01 3.3174193910638961e-01 -1.6559023176486229e+00 -2.4717782776735722e+00 -1.2613536111859447e+00 -1.0429739057398562e+00 6.3043292588608923e-01 2.0670761409646055e+00 5.2803039972243149e-01 8.9967537123226737e-01 4.1942548497452536e-01 -2.1305388412278261e+00 5.6929120608445150e-01 -2.8490935744615205e+00 -1.6381271542986300e+00 3.4793670971190771e-01 -5.9965258787872577e-01 2.7444244662054623e-01 -6.0333633117446828e-01 
        </Neuron>
        <Neuron NSynapses="26">
          -4.2760867711787318e+00 -1.1235700068366303e+00 -5.3498961729647405e+00 1.0255838096880914e+00 -9.7100634592673984e-01 -6.3030022252086768e+00 -9.0368526449145359e-01 -9.2708271776872714e-02 -2.7024502661688974e+00 -3.7367749113480300e+00 3.7217302252819384e+00 -7.5786544701322456e-01 -9.0555994147363013e+00 1.2189283891237133e-01 1.0359312668632679e+01 -2.8148370317649949e+00 7.0133293448843481e-01 -3.7857297137296184e+00 -7.3128552066263375e-01 1.0923630319537567e+00 -3.4250316728704226e+00 -2.8335612841469668e+00 -2.7838262979073241e+00 1.9411835326768747e+00 -5.1070548271315597e-01 8.2073162623862608e+00 
        </Neuron>
        <Neuron NSynapses="26">
          -5.5808063163112176e-01 -1.2908326534000591e+00 1.4355381269996805e+00 8.7347003460894390e-01 7.8924779211167928e-01 -3.2504031418763052e-01 -7.3788205177994755e-03 -2.3422896108980589e+00 -8.1306156655219519e-01 -6.1732761323217011e-01 7.3866924305118556e-02 1.0683455314115422e+01 2.2529578168137463e+00 -1.9583677175957630e+00 -6.5809583358452848e+00 -5.7034301416557041e+00 1.8818517019476497e+00 2.6883687966379797e+00 -1.7094690853964218e+00 5.3734622993723429e+00 -4.5435448415223263e+00 2.6398547069536398e+00 2.5408901193997258e+00 -1.7795418637464555e-01 -4.7746273808071416e-01 -3.4846961453608827e-01 
        </Neuron>
        <Neuron NSynapses="26">
          -1.7355609868126187e+00 -1.1368673849913415e+00 -2.2549296759909225e+00 -4.1488131240944135e+00 1.9466312170459024e+00 2.6592337346818096e+00 1.4819135223354545e+00 -3.5105759500801228e+00 5.6916934982294132e-01 -3.4628099908294545e+00 -1.2478755516202215e-01 -2.8993158177245362e+00 -2.0979365149344098e-01 -2.4986829757911275e+00 -1.4667490778766030e+00 -1.0377046673363908e+00 6.1526580238143969e-01 8.1964087288495324e-01 -2.2872106249699655e+00 -4.2793361899594934e-01 5.5365027579309134e-01 -7.1473955819244261e-01 -1.8558895272973188e+00 -5.4635301865387087e-01 -1.9776911741625258e-01 -1.4670535508123073e-01 
        </Neuron>
        <Neuron NSynapses="26">
          -2.7914227788452859e+00 -8.0475999310149982e-01 -4.3988886507068674e+00 5.5060421274526139e-01 -2.3401713553009489e+00 -3.2645600857860644e+00 -1.8717934590483527e+00 -2.6830451428320763e+00 -4.2626031485168854e+00 1.7249060413200683e+00 1.2323427959651749e+00 -1.0871673139860448e+01 -5.6627466873182399e+00 -1.2611335989214938e+00 3.4791250995834146e+00 -3.4367871017872358e+00 1.7360233290155938e+00 -5.6621668299629340e+00 -4.8241325694052311e+00 2.5218442787155713e+00 -4.9083163983817304e+00 -3.0222913712782686e+00 -3.2662852140109835e+00 -1.8603303929041848e-01 -2.4813886620604664e+00 -1.0566438380736154e+00 
        </Neuron>
        <Neuron NSynapses="26">
          1.8769543826188539e+00 1.7614861619937998e+00 5.5346441396126066e-02 -9.6640352301985655e-01 1.6587118247259058e+00 3.3478883814020644e+00 -5.6224643289296342e-02 6.5234579477912591e-01 5.1849679680938909e-01 3.8084861279353321e-01 -1.8293905636760042e+00 -1.5235044242895894e+00 2.7770719845822062e-01 1.8759383933790628e+00 -4.7971154130467664e+00 7.6810863608017810e-02 -3.3129031677881580e+00 1.6411431042482849e-01 -1.4114605658434790e-01 1.2232790060832124e+00 -2.7089882020502660e+00 -8.8554889634032330e-01 -3.9151037369631814e-01 8.0002971212641827e-01 1.1323542099399388e+00 1.7195405962492510e-01 
        </Neuron>
        <Neuron NSynapses="26">
          1.2184516733789830e+00 -5.1132142494352262e-01 -5.6302966094719702e+00 -2.5009607832186105e+00 -4.1845519228087618e+00 1.6590353501595272e+00 8.0654669117203689e-02 6.1629503211275560e-01 -1.9775714007834140e+00 -5.6439878783914682e-02 -2.5786709420052256e-01 -2.4755552883964862e+00 -3.0908826375226706e-01 -1.0762561992821769e+00 -4.4323874537728756e+00 -1.4095987398443439e+00 -7.4366189598666324e-02 -3.2139813567801658e+00 1.8925502151133353e-01 -6.8382683620397899e-01 3.8482269980492467e-01 -1.4527918064935410e+00 -9.3997603297192256e-01 5.6149966210942548e-01 -5.3901813689171274e-01 -9.1720322546082189e-01 
        </Neuron>
        <Neuron NSynapses="26">
          9.7220679082331829e-01 1.7397870059230236e-01 2.1890927649706926e+00 -6.7631800914212992e-01 1.2690546245023812e-01 -3.4071646787852383e-01 -4.2338336750709544e+00 -2.8276467923896931e+00 4.8810398359197569e+00 -4.1433375211765039e-01 -7.9548160010925351e-01 1.3905944684524139e+00 4.1018721451242263e-01 -4.9460061284641182e-01 1.3243436237054740e+00 3.1675131864684429e+00 -1.1784399468730034e+00 4.9116318391064073e+00 2.8633098472425318e+00 3.7711805591389553e+00 4.0096146686543195e+00 1.6718731716856783e+00 8.3473251535235804e-01 -2.8687971746928231e+00 -5.0168060471030911e+00 -6.6103199597860840e-01 
        </Neuron>
        <Neuron NSynapses="26">
          -5.6734482452040857e-01 -1.5832650212219033e+00 -2.1426535221727820e+00 -2.8640140683516844e+00 1.1093832832747486e+00 5.9790491420222669e-01 -9.0179767760248808e-01 2.4975906284592480e+00 -1.2057815041069158e+00 1.2633209267584213e+00 5.6598137560903095e-01 -6.3076319248321591e+00 -2.7532430139634765e+00 -1.9751032629924801e+00 1.5714992898657387e+00 -5.8405179181622700e+00 -1.4203015005921065e+00 -3.6017427293652418e+00 4.6131184100636897e+00 -4.6604146006607889e+00 -3.4909917541892066e-01 7.8190776543055673e-01 -4.6376902712280224e+00 6.4953796008598808e-01 3.2466840780912659e-01 9.9839828220567778e-02 
        </Neuron>
        <Neuron NSynapses="26">
          -1.1240192411662128e-01 -9.7414929445763054e-01 -5.8720012996326165e-01 2.4219267428073468e+00 -2.1642824595565040e+00 2.0538215907686155e+00 -2.0913794490437052e-01 1.3866063711384052e-01 -4.5563465555734020e+00 -4.3826219729110966e-01 2.6517015615307921e-01 1.0238195860566808e+00 -1.4104167330366391e+00 6.4990887240135853e-01 -3.0133943380344888e+00 -6.0681931086906904e-01 9.1771551815649732e-01 -1.0630182576562568e+00 -3.0769152373648314e+00 -1.2231725615183076e+00 -2.0895855063048918e+00 8.0956730270290700e-01 4.1769967661645852e-01 1.0325042353604428e+00 -2.5208614658460351e+00 -2.0016783912114841e-01 
        </Neuron>
        <Neuron NSynapses="26">
          6.6879465655820480e-01 1.0189423704118368e+00 -1.0734808136581537e+00 1.8802676936844041e+00 -6.2692263648788882e-01 3.7010018893648278e-01 -8.2536365694955260e-01 2.0408192025075564e+00 -1.2772758969801018e-02 -8.8562630386283170e-01 -1.3473662970117306e+00 -4.0048303572472594e+00 -3.3967321736784286e+00 2.7316032704394093e+00 6.1617810385251126e-01 -3.8799730149080633e+00 -7.6946719202158043e-01 -2.6637833250748861e+00 -3.0450489649719494e+00 -2.7670793002638838e+00 -1.3569005147363926e+00 -2.0761680056281624e+00 -2.5362230124069720e+00 -1.0580717045060006e+00 -2.3803916850608604e+00 7.5368520456799382e-01 
        </Neuron>
        <Neuron NSynapses="26">
          1.4904730850099908e+00 -2.0038657626623446e+00 -3.7162432507484122e-01 -2.3196189156169802e-01 -1.3196283464087089e-01 -2.7253631084578078e-01 1.4246719767338336e+00 7.8848874036038308e-01 2.0338746670438321e+00 -1.8264460854778408e+00 1.2802420101862122e+00 1.1072655072162345e+00 -1.7422634032092861e+00 -2.4807532024643861e+00 -7.6823875902065701e+00 5.2910714360687938e-01 -3.3622727838051767e+00 2.1388700993557199e+00 3.3815139011805245e-01 -7.3385739608722700e-01 3.4097803801842477e+00 9.9310086994641655e-01 3.1497377611341175e+00 -5.6932473185945753e-01 -1.5593324456169095e+00 2.0432970125372525e+00 
        </Neuron>
        <Neuron NSynapses="26">
          1.5952435476091882e+00 -9.7172408116754805e-01 5.1276614351331073e-01 1.7376089697135069e+00 -1.6404384418658104e+00 -3.4386826577920521e-01 -1.0900470362421213e+00 4.9464503008766153e-01 5.4736678409545558e-01 9.1530543291789479e-01 -1.3785489779393073e-01 9.0592314717858091e-01 1.1186104040425521e-01 1.9549331989964858e+00 -1.4301713732799113e+00 2.4582844641842980e+00 -2.6945172718198735e+00 1.0218479095513845e-01 7.3191010758986463e-01 -5.7915031908151969e-02 -1.2039847682913760e+00 -1.4290317992799000e+00 2.0645568123667868e+00 1.0145814536639042e+00 -1.0485862649188722e+00 2.0995925650758435e-01 
        </Neuron>
        <Neuron NSynapses="26">
          -2.0604517268713645e+00 -1.2127357872047351e-01 -2.2388233837083598e+00 -3.5362529236070417e-01 -2.0162971321495999e+00 -4.8019778160108884e-01 -1.9360835030533690e+00 2.7033426591601697e+00 9.5279083406264037e-02 -3.3615213221055429e+00 2.8277449750814196e+00 5.9827489951434307e+00 8.7976128666983904e+00 1.3069247947202838e+00 -4.1943774006553376e+00 -3.6151753191661782e+00 2.6352535550255345e+00 -1.2001710015052349e+00 -8.1169661737516552e-01 3.7750785607164481e+00 -5.4261350710700962e-01 -6.9959914535068304e+00 3.4741309164737535e+00 -1.2711361716312042e+00 -1.1681271604427030e+00 5.0493319081782853e-02 
        </Neuron>
        <Neuron NSynapses="26">
          1.3300910556940869e+01 1.4627834345656854e+00 4.2894900507960748e-01 2.0651538908241848e-01 6.3642099328114987e-01 -1.8160646634062223e+00 -2.3116909558463702e-01 1.7615464814768489e+00 4.2724933793515607e-01 2.5083359835903336e-02 -2.5413384136467712e+00 -9.4809883498075342e-01 -4.5140877713257117e+00 5.6364042377041423e+00 -2.6825352089460547e-01 -1.2064532821051823e+00 -3.5303666069290038e+00 1.2646552671320959e+00 -5.1415019893815528e-01 1.3582262261402394e+00 1.5652012029697291e+00 8.7137857740776814e-02 -1.5447488108094800e+00 -2.3287199083118857e+00 -1.0740386584954851e+00 1.0306151705459343e+00 
        </Neuron>
        <Neuron NSynapses="26">
          -1.5062060619320778e+00 -1.9178227449241656e+00 2.3925658572149917e+00 -4.3215155829800023e-01 9.8201930366437995e-01 5.3732452566579003e-01 2.4361009023401792e+00 3.3719965696616869e+00 -1.1404494898507860e+00 -1.6631499347353396e+00 -1.0177667473146430e+00 -3.5015070240766937e+00 -6.3969280115521410e-01 -1.3738486415248730e+00 -2.0025376540057063e+00 -1.5883938651639267e+00 -1.4039277400648458e+00 -1.4457248395195932e+00 -1.6392122250960701e+00 1.8424856063742319e+00 -3.1970127456965119e-01 8.6730829180825342e-01 2.2442584385385653e+00 1.7917921871194700e+00 6.7747065621161329e-01 -1.7521177567855761e+00 
        </Neuron>
        <Neuron NSynapses="26">
          -2.4306294461431381e+00 -3.1606438416904148e-01 -7.5798310892811749e-02 7.4990297372530601e-02 -6.0141715797290907e-01 7.4315899752691761e-02 1.8078894229020390e-01 1.0124792727977787e+00 3.3248916012137092e-01 9.2439053456777032e-01 -2.4274442847544369e+00 -2.6858883249624693e-01 -5.7267010734303236e-01 -4.8970075841376417e+00 -1.4963741399959021e-01 3.3906198341431416e-02 1.6038226369577218e+00 1.5473217258352209e-01 1.0724281896560195e+00 5.0246233610803637e-01 5.2732504192382934e-01 -6.8101898645818426e-01 9.6149981242671034e-01 1.0855294794637402e+00 1.6729416128000814e+00 -2.8675094372797522e-01 
        </Neuron>
        <Neuron NSynapses="26">
          3.9551680431529046e-01 -6.8898538643578389e-01 3.9936761945028985e+00 -3.3561163816901431e+00 -7.9482212385918105e-01 1.2095782875228002e-01 -2.9741341122928711e-01 -6.5556563132553836e-01 3.2829830962995091e-02 2.4768710721679832e+00 -1.3172771464328374e+00 5.8688277783735787e-01 3.3466941520030771e+00 -1.2483528514926305e+00 -3.0306471373785698e-01 4.3584036158932010e-01 -4.0515940960689223e+00 2.2157654264295736e+00 6.7403982688308972e-01 -2.0911645289899039e+00 6.1155952792495576e+00 -1.3067681953243003e-02 -4.9796635958776552e+00 5.2691936242711901e-01 1.6408451189893698e+00 -2.7164659433539091e+00 
        </Neuron>
        <Neuron NSynapses="26">
          2.2203370098953208e+00 -1.2831082048759261e+00 1.1857879733145820e+00 -7.3473592442451030e-01 1.4152887976626197e-01 7.1192211434424468e-01 4.2039274236200103e-01 -1.5595995470570074e+00 -1.5097716622239171e-01 -8.2696732325866706e-01 -2.5573620444067346e+00 4.2743731419690906e-01 -5.5505057068476160e-01 1.5164802790474199e+00 -2.0279808202715763e+00 -1.2447894724566613e+00 -1.1097458726836567e+00 2.3467940446414667e-01 -1.2081746733808125e+00 -2.1496305467404500e-01 -5.5136780808728936e-01 -2.4854489597167939e-01 -1.5747043673683252e+00 -1.0065045187322343e+00 -2.0754484724061366e+00 -2.4150964460596276e+00 
        </Neuron>
        <Neuron NSynapses="26">
          1.0622033574746492e+00 -1.1604765887022457e+00 6.6697944997549341e-01 1.6642823749501440e-01 2.0204830956270410e+00 -1.7331353658125190e+00 -1.3361366957107148e+00 -1.4171095212128939e+00 7.3974657106264763e-01 -9.7777493389160552e-01 -1.6440652789934487e+00 -2.5403204210984143e+00 8.1876215192167134e-01 1.3506873603128078e+00 -4.6060396907005328e-02 9.2010748497191219e-01 -6.0742351373631198e+00 -7.4938841908419098e+00 3.1110795273546954e-01 -4.0148461108732354e+00 2.4328262290312175e+00 -9.2038621457794711e-01 6.1189609873282058e-01 -9.6074682564144098e-01 -2.0926864599348324e-01 -1.2457747394754404e+00 
        </Neuron>
        <Neuron NSynapses="26">
          -4.1691143075034818e+00 -6.1011898776100693e-01 -7.2202948892600300e+00 -1.9431099956571796e+00 4.7533548589761998e-01 3.9976384302521635e+00 1.3161463999191636e+00 -5.2103274344109369e+00 -2.3543794518388377e+00 8.2758302492897218e-01 3.7128858059890968e+00 -3.7124155548088504e+00 9.1648949397313051e-01 -1.8467396886618415e-01 -1.7974945340499788e+00 1.1465816767156494e+00 3.5528286677341230e+00 -2.1827675418561947e+00 -1.7678208191472303e-01 1.0084005077283613e+00 -1.1552413938905077e+00 -2.2692170649276791e+00 -2.3862065105430670e+00 -1.4679670202648063e+00 2.0874558755945576e+00 -2.9017321897853052e+00 
        </Neuron>
        <Neuron NSynapses="26">
          1.6716237280506661e+00 -1.2091503550676638e-01 1.6843494641052164e+00 -2.1965355463601099e+00 3.7629413700089631e-01 -2.2829399001354727e+00 -4.8209100594777721e-01 -1.1531088109249592e-02 3.4714988366445476e-01 1.6273572906080111e-01 -2.6155710694464979e-01 -2.4550279853840196e+00 2.5134156419056025e-01 -2.2957422404205341e-01 2.2491135949314307e+00 -6.0217905481102987e+00 2.9119696155071511e+00 -1.9432770033259203e+00 -6.9334078214127199e+00 -2.5326504812849384e+00 -1.6858789060020756e+00 -3.9993776318471799e+00 -4.9545443922911945e+00 -3.6558465588247637e+00 5.8410287945426709e-01 -7.3741333182723712e-01 
        </Neuron>
        <Neuron NSynapses="26">
          -1.9155286835277677e-01 -4.5309603448492324e-02 2.5854506906432562e+00 1.5429307562493417e+00 -5.3541279620092552e-01 1.3966070385560319e+00 -1.3126545964885750e+00 1.7128471873076678e+00 -7.1796571473334703e-01 -1.2633814015076228e+00 -1.6279515880852231e+00 -1.7094366391934435e+00 2.2409073634621599e+00 -1.8364140988794997e-01 -2.1676718621807218e+00 -1.8799026298824990e+00 -2.0628440063060283e+00 -6.1393214903623330e-02 -1.8842470603655821e+00 3.3870301625284632e-01 -2.1785773791630501e+00 1.2047092948430180e-01 -1.8864426415177451e+00 -2.0849102418042836e-01 -8.4431110343051918e-01 -1.5999713137970648e+00 
        </Neuron>
        <Neuron NSynapses="26">
          -2.0538780202459446e+00 -1.9919278159888514e+00 7.4320405612124751e-01 2.6101907610465429e+00 -3.7967932354724274e+00 -3.7574296207069833e+00 -5.2714402910379876e-01 -5.1966270591528541e-01 -2.8421481866188611e+00 -2.0171499899817711e+00 -4.0318511511387038e+00 1.0616854833690459e+00 -3.2109743655883665e+00 -1.4672373196693855e+00 -1.9131912051570641e+00 1.7867890280554878e-04 -9.2398535869071208e-01 1.5634597061911970e+00 -2.6961169213266136e+00 -1.7356420199891016e+00 -6.7574688665699307e+00 2.0108253840580810e+00 2.3612216342915908e+00 -2.3081184444774014e+00 -2.8546519627486862e+00 -2.0014862357272949e+00 
        </Neuron>
      </Layer>
      <Layer Index="2" NNeurons="27">
        <Neuron NSynapses="1">
          1.6107826101306235e+00 
        </Neuron>
        <Neuron NSynapses="1">
          -1.0436144677519719e+00 
        </Neuron>
        <Neuron NSynapses="1">
          -6.0635671629145431e+00 
        </Neuron>
        <Neuron NSynapses="1">
          -2.8029500550794006e+00 
        </Neuron>
        <Neuron NSynapses="1">
          2.6066123843334248e+00 
        </Neuron>
        <Neuron NSynapses="1">
          -1.8207855711021166e+00 
        </Neuron>
        <Neuron NSynapses="1">
          1.8901821716930451e+00 
        </Neuron>
        <Neuron NSynapses="1">
          -2.9365257968191796e+00 
        </Neuron>
        <Neuron NSynapses="1">
          1.9622235279643288e+00 
        </Neuron>
        <Neuron NSynapses="1">
          3.3505056444283494e+00 
        </Neuron>
        <Neuron NSynapses="1">
          -1.8150891189808378e+00 
        </Neuron>
        <Neuron NSynapses="1">
          3.9605046334279290e+00 
        </Neuron>
        <Neuron NSynapses="1">
          -4.3065590205664517e+00 
        </Neuron>
        <Neuron NSynapses="1">
          4.1371529974131684e+00 
        </Neuron>
        <Neuron NSynapses="1">
          -6.2052340612439503e+00 
        </Neuron>
        <Neuron NSynapses="1">
          2.9701951830022080e+00 
        </Neuron>
        <Neuron NSynapses="1">
          -2.0288436006453372e+00 
        </Neuron>
        <Neuron NSynapses="1">
          1.9575594786291513e+00 
        </Neuron>
        <Neuron NSynapses="1">
          -2.2634903689475250e+00 
        </Neuron>
        <Neuron NSynapses="1">
          -2.6090777223396229e+00 
        </Neuron>
        <Neuron NSynapses="1">
          1.5428872726865595e+00 
        </Neuron>
        <Neuron NSynapses="1">
          -4.1048923403763080e+00 
        </Neuron>
        <Neuron NSynapses="1">
          1.9002409177146606e+00 
        </Neuron>
        <Neuron NSynapses="1">
          -1.0615582403722930e+00 
        </Neuron>
        <Neuron NSynapses="1">
          -2.3572081454569651e+00 
        </Neuron>
        <Neuron NSynapses="1">
          -4.2541353173643301e+00 
        </Neuron>
        <Neuron NSynapses="1">
          -1.3739291569407825e+00 
        </Neuron>
      </Layer>
      <Layer Index="3" NNeurons="1">
        <Neuron NSynapses="0"/>
      </Layer>
    </Layout>
  </Weights>
</MethodSetup>
